custom_quantize_layers:
    '74': float16
    '76': float16
    '79': float16
    '82': float16
    '83': float16
    '84': float16
    '88': float16
    '91': float16
    '94': float16
    '97': float16
    '98': float16
    '99': float16
    '103': float16
    '106': float16
    '108': float16
    '111': float16
    '114': float16
    '115': float16
    '116': float16
    '120': float16
    '123': float16
    '126': float16
    '129': float16
    '130': float16
    '131': float16
    '135': float16
    '139': float16
    '141': float16
    '143': float16
    '145': float16
    
quantize_parameters:
    input_vis:
        qtype: asymmetric_quantized
        qmethod: layer
        dtype: float32
        min:
        -   0.0
        max:
        -   1.0
        scale: []
        zero_point: []
        ori_min:
        -   0.0
        ori_max:
        -   1.0
    '74':
        qtype: asymmetric_quantized
        qmethod: layer
        dtype: int8
        min:
        -   -1.3725680112838745
        max:
        -   1.437612533569336
        scale:
        -   0.011020315862169453
        zero_point:
        -   -3
        ori_min:
        -   -1.3725680112838745
        ori_max:
        -   1.437612533569336
    '75':
        qtype: asymmetric_quantized
        qmethod: layer
        dtype: int8
        min:
        -   -0.2745136022567749
        max:
        -   1.437612533569336
        scale:
        -   0.0067142201404945525
        zero_point:
        -   -87
        ori_min:
        -   -0.2745136022567749
        ori_max:
        -   1.437612533569336
    '76':
        qtype: asymmetric_quantized
        qmethod: layer
        dtype: int8
        min:
        -   -1.8438400030136108
        max:
        -   2.312947988510132
        scale:
        -   0.01630112937852448
        zero_point:
        -   -15
        ori_min:
        -   -1.8438400030136108
        ori_max:
        -   2.312947988510132
    '77':
        qtype: asymmetric_quantized
        qmethod: layer
        dtype: int8
        min:
        -   -0.36876800656318665
        max:
        -   2.312947988510132
        scale:
        -   0.010516533314013013
        zero_point:
        -   -93
        ori_min:
        -   -0.36876800656318665
        ori_max:
        -   2.312947988510132
    '78':
        qtype: asymmetric_quantized
        qmethod: layer
        dtype: int8
        min:
        -   -0.36876800656318665
        max:
        -   2.312947988510132
        scale:
        -   0.010516533314013013
        zero_point:
        -   -93
        ori_min:
        -   -0.36876800656318665
        ori_max:
        -   2.312947988510132
    '79':
        qtype: asymmetric_quantized
        qmethod: layer
        dtype: int8
        min:
        -   -4.251094341278076
        max:
        -   6.046104907989502
        scale:
        -   0.04038117352653952
        zero_point:
        -   -23
        ori_min:
        -   -4.251094341278076
        ori_max:
        -   6.046104907989502
    '80':
        qtype: asymmetric_quantized
        qmethod: layer
        dtype: int8
        min:
        -   -0.8502188920974731
        max:
        -   6.046104907989502
        scale:
        -   0.027044407059164607
        zero_point:
        -   -97
        ori_min:
        -   -0.8502188920974731
        ori_max:
        -   6.046104907989502
    '81':
        qtype: asymmetric_quantized
        qmethod: layer
        dtype: int8
        min:
        -   -0.8502188920974731
        max:
        -   6.046104907989502
        scale:
        -   0.027044407059164607
        zero_point:
        -   -97
        ori_min:
        -   -0.8502188920974731
        ori_max:
        -   6.046104907989502
    '82':
        qtype: asymmetric_quantized
        qmethod: layer
        dtype: int8
        min:
        -   -2.5135598182678223
        max:
        -   3.135327100753784
        scale:
        -   0.02215249772165336
        zero_point:
        -   -15
        ori_min:
        -   -2.5135598182678223
        ori_max:
        -   3.135327100753784
    '83':
        qtype: asymmetric_quantized
        qmethod: layer
        dtype: int8
        min:
        -   -4.722133636474609
        max:
        -   4.7988786697387695
        scale:
        -   0.037337303161621094
        zero_point:
        -   -2
        ori_min:
        -   -4.722133636474609
        ori_max:
        -   4.7988786697387695
    '85':
        qtype: asymmetric_quantized
        qmethod: layer
        dtype: int8
        min:
        -   0.0
        max:
        -   4.7988786697387695
        scale:
        -   0.018819132038191255
        zero_point:
        -   -128
        ori_min:
        -   0.0
        ori_max:
        -   4.7988786697387695
    '84':
        qtype: asymmetric_quantized
        qmethod: layer
        dtype: int8
        min:
        -   -4.805605411529541
        max:
        -   2.3930506706237793
        scale:
        -   0.02823002385158165
        zero_point:
        -   42
        ori_min:
        -   -4.805605411529541
        ori_max:
        -   2.3930506706237793
    '86':
        qtype: asymmetric_quantized
        qmethod: layer
        dtype: int8
        min:
        -   0.0
        max:
        -   4.805605411529541
        scale:
        -   0.018845511417762906
        zero_point:
        -   -128
        ori_min:
        -   5.587935447692871e-09
        ori_max:
        -   4.805605411529541
    '87':
        qtype: asymmetric_quantized
        qmethod: layer
        dtype: int8
        min:
        -   0.0
        max:
        -   5.211583137512207
        scale:
        -   0.02043758093142042
        zero_point:
        -   -128
        ori_min:
        -   1.524149638498784e-06
        ori_max:
        -   5.211583137512207
    '88':
        qtype: asymmetric_quantized
        qmethod: layer
        dtype: int8
        min:
        -   -1.760210394859314
        max:
        -   1.7035211324691772
        scale:
        -   0.013583260891484279
        zero_point:
        -   2
        ori_min:
        -   -1.760210394859314
        ori_max:
        -   1.7035211324691772
    '89':
        qtype: asymmetric_quantized
        qmethod: layer
        dtype: int8
        min:
        -   -3.0017685890197754
        max:
        -   3.186756134033203
        scale:
        -   0.02426872440412933
        zero_point:
        -   -4
        ori_min:
        -   -3.0017685890197754
        ori_max:
        -   3.186756134033203
    '90':
        qtype: asymmetric_quantized
        qmethod: layer
        dtype: int8
        min:
        -   -0.30017685890197754
        max:
        -   3.186756134033203
        scale:
        -   0.013674247031118355
        zero_point:
        -   -106
        ori_min:
        -   -0.30017685890197754
        ori_max:
        -   3.186756134033203
    '91':
        qtype: asymmetric_quantized
        qmethod: layer
        dtype: int8
        min:
        -   -4.38133430480957
        max:
        -   5.16770076751709
        scale:
        -   0.03744719636206533
        zero_point:
        -   -11
        ori_min:
        -   -4.38133430480957
        ori_max:
        -   5.16770076751709
    '92':
        qtype: asymmetric_quantized
        qmethod: layer
        dtype: int8
        min:
        -   -0.8762668967247009
        max:
        -   5.16770076751709
        scale:
        -   0.023701833977418787
        zero_point:
        -   -91
        ori_min:
        -   -0.8762668967247009
        ori_max:
        -   5.16770076751709
    '93':
        qtype: asymmetric_quantized
        qmethod: layer
        dtype: int8
        min:
        -   -0.8762668967247009
        max:
        -   5.16770076751709
        scale:
        -   0.023701833977418787
        zero_point:
        -   -91
        ori_min:
        -   -0.8762668967247009
        ori_max:
        -   5.16770076751709
    '94':
        qtype: asymmetric_quantized
        qmethod: layer
        dtype: int8
        min:
        -   -8.708504676818848
        max:
        -   8.689467430114746
        scale:
        -   0.06822734159581802
        zero_point:
        -   0
        ori_min:
        -   -8.708504676818848
        ori_max:
        -   8.689467430114746
    '95':
        qtype: asymmetric_quantized
        qmethod: layer
        dtype: int8
        min:
        -   -1.7417010068893433
        max:
        -   8.689467430114746
        scale:
        -   0.040906542890212116
        zero_point:
        -   -85
        ori_min:
        -   -1.7417010068893433
        ori_max:
        -   8.689467430114746
    '96':
        qtype: asymmetric_quantized
        qmethod: layer
        dtype: int8
        min:
        -   -1.7417010068893433
        max:
        -   8.689467430114746
        scale:
        -   0.040906542890212116
        zero_point:
        -   -85
        ori_min:
        -   -1.7417010068893433
        ori_max:
        -   8.689467430114746
    '97':
        qtype: asymmetric_quantized
        qmethod: layer
        dtype: int8
        min:
        -   -5.138212203979492
        max:
        -   5.7674407958984375
        scale:
        -   0.04276726666618796
        zero_point:
        -   -8
        ori_min:
        -   -5.138212203979492
        ori_max:
        -   5.7674407958984375
    '98':
        qtype: asymmetric_quantized
        qmethod: layer
        dtype: int8
        min:
        -   -9.013833999633789
        max:
        -   11.450529098510742
        scale:
        -   0.08025240430644914
        zero_point:
        -   -16
        ori_min:
        -   -9.013833999633789
        ori_max:
        -   11.450529098510742
    '100':
        qtype: asymmetric_quantized
        qmethod: layer
        dtype: int8
        min:
        -   0.0
        max:
        -   11.450529098510742
        scale:
        -   0.04490403568043428
        zero_point:
        -   -128
        ori_min:
        -   0.0
        ori_max:
        -   11.450529098510742
    '99':
        qtype: asymmetric_quantized
        qmethod: layer
        dtype: int8
        min:
        -   -11.146836280822754
        max:
        -   7.749207973480225
        scale:
        -   0.07410213433059992
        zero_point:
        -   22
        ori_min:
        -   -11.146836280822754
        ori_max:
        -   7.749207973480225
    '101':
        qtype: asymmetric_quantized
        qmethod: layer
        dtype: int8
        min:
        -   0.0
        max:
        -   11.146836280822754
        scale:
        -   0.04371308345420688
        zero_point:
        -   -128
        ori_min:
        -   0.0
        ori_max:
        -   11.146836280822754
    '102':
        qtype: asymmetric_quantized
        qmethod: layer
        dtype: int8
        min:
        -   0.0
        max:
        -   13.376884460449219
        scale:
        -   0.05245837043313419
        zero_point:
        -   -128
        ori_min:
        -   7.939524948596954e-08
        ori_max:
        -   13.376884460449219
    '103':
        qtype: asymmetric_quantized
        qmethod: layer
        dtype: int8
        min:
        -   -6.436431884765625
        max:
        -   4.493452548980713
        scale:
        -   0.04286229189704446
        zero_point:
        -   22
        ori_min:
        -   -6.436431884765625
        ori_max:
        -   4.493452548980713
    '104':
        qtype: asymmetric_quantized
        qmethod: layer
        dtype: int8
        min:
        -   -7.565982818603516
        max:
        -   6.685131072998047
        scale:
        -   0.05588672114353554
        zero_point:
        -   7
        ori_min:
        -   -7.565982818603516
        ori_max:
        -   6.685131072998047
    '105':
        qtype: asymmetric_quantized
        qmethod: layer
        dtype: int8
        min:
        -   -0.7565982937812805
        max:
        -   6.685131072998047
        scale:
        -   0.02918325241874246
        zero_point:
        -   -102
        ori_min:
        -   -0.7565982937812805
        ori_max:
        -   6.685131072998047
    input_inf:
        qtype: asymmetric_quantized
        qmethod: layer
        dtype: float32
        min:
        -   0.0
        max:
        -   248.0
        scale: []
        zero_point: []
        ori_min:
        -   0.0
        ori_max:
        -   248.0
    '106':
        qtype: asymmetric_quantized
        qmethod: layer
        dtype: int8
        min:
        -   -289.32135009765625
        max:
        -   213.38308715820312
        scale:
        -   1.971389950022978
        zero_point:
        -   19
        ori_min:
        -   -289.32135009765625
        ori_max:
        -   213.38308715820312
    '107':
        qtype: asymmetric_quantized
        qmethod: layer
        dtype: int8
        min:
        -   -57.8642692565918
        max:
        -   213.38308715820312
        scale:
        -   1.0637151231952742
        zero_point:
        -   -74
        ori_min:
        -   -57.8642692565918
        ori_max:
        -   213.38308715820312
    '108':
        qtype: asymmetric_quantized
        qmethod: layer
        dtype: int8
        min:
        -   -224.0525360107422
        max:
        -   259.447021484375
        scale:
        -   1.8960766960592832
        zero_point:
        -   -10
        ori_min:
        -   -224.0525360107422
        ori_max:
        -   259.447021484375
    '109':
        qtype: asymmetric_quantized
        qmethod: layer
        dtype: int8
        min:
        -   -44.810508728027344
        max:
        -   259.447021484375
        scale:
        -   1.1931667851466758
        zero_point:
        -   -90
        ori_min:
        -   -44.810508728027344
        ori_max:
        -   259.447021484375
    '110':
        qtype: asymmetric_quantized
        qmethod: layer
        dtype: int8
        min:
        -   -57.8642692565918
        max:
        -   259.447021484375
        scale:
        -   1.2443580029057522
        zero_point:
        -   -81
        ori_min:
        -   -57.8642692565918
        ori_max:
        -   259.447021484375
    '111':
        qtype: asymmetric_quantized
        qmethod: layer
        dtype: int8
        min:
        -   -357.19964599609375
        max:
        -   391.96026611328125
        scale:
        -   2.9378820082720587
        zero_point:
        -   -6
        ori_min:
        -   -357.19964599609375
        ori_max:
        -   391.96026611328125
    '112':
        qtype: asymmetric_quantized
        qmethod: layer
        dtype: int8
        min:
        -   -71.43993377685547
        max:
        -   391.96026611328125
        scale:
        -   1.8172556858436735
        zero_point:
        -   -89
        ori_min:
        -   -71.43993377685547
        ori_max:
        -   391.96026611328125
    '113':
        qtype: asymmetric_quantized
        qmethod: layer
        dtype: int8
        min:
        -   -71.43993377685547
        max:
        -   391.96026611328125
        scale:
        -   1.8172556858436735
        zero_point:
        -   -89
        ori_min:
        -   -71.43993377685547
        ori_max:
        -   391.96026611328125
    '114':
        qtype: asymmetric_quantized
        qmethod: layer
        dtype: int8
        min:
        -   -278.91998291015625
        max:
        -   378.1520080566406
        scale:
        -   2.5767529057521448
        zero_point:
        -   -20
        ori_min:
        -   -278.91998291015625
        ori_max:
        -   378.1520080566406
    '115':
        qtype: asymmetric_quantized
        qmethod: layer
        dtype: int8
        min:
        -   -644.0179443359375
        max:
        -   550.4647827148438
        scale:
        -   4.684245988434436
        zero_point:
        -   9
        ori_min:
        -   -644.0179443359375
        ori_max:
        -   550.4647827148438
    '117':
        qtype: asymmetric_quantized
        qmethod: layer
        dtype: int8
        min:
        -   0.0
        max:
        -   644.0179443359375
        scale:
        -   2.5255605660232843
        zero_point:
        -   -128
        ori_min:
        -   0.0
        ori_max:
        -   644.0179443359375
    '116':
        qtype: asymmetric_quantized
        qmethod: layer
        dtype: int8
        min:
        -   -408.80517578125
        max:
        -   437.3380432128906
        scale:
        -   3.3182087019378064
        zero_point:
        -   -5
        ori_min:
        -   -408.80517578125
        ori_max:
        -   437.3380432128906
    '118':
        qtype: asymmetric_quantized
        qmethod: layer
        dtype: int8
        min:
        -   0.0
        max:
        -   437.3380432128906
        scale:
        -   1.715051149854473
        zero_point:
        -   -128
        ori_min:
        -   0.0
        ori_max:
        -   437.3380432128906
    '119':
        qtype: asymmetric_quantized
        qmethod: layer
        dtype: int8
        min:
        -   0.0
        max:
        -   788.29345703125
        scale:
        -   3.0913468903186274
        zero_point:
        -   -128
        ori_min:
        -   0.0010289447382092476
        ori_max:
        -   788.29345703125
    '120':
        qtype: asymmetric_quantized
        qmethod: layer
        dtype: int8
        min:
        -   -302.2586364746094
        max:
        -   346.6524963378906
        scale:
        -   2.5447495404411766
        zero_point:
        -   -9
        ori_min:
        -   -302.2586364746094
        ori_max:
        -   346.6524963378906
    '121':
        qtype: asymmetric_quantized
        qmethod: layer
        dtype: int8
        min:
        -   -414.7657165527344
        max:
        -   501.0182189941406
        scale:
        -   3.591309551164216
        zero_point:
        -   -13
        ori_min:
        -   -414.7657165527344
        ori_max:
        -   501.0182189941406
    '122':
        qtype: asymmetric_quantized
        qmethod: layer
        dtype: int8
        min:
        -   -41.4765739440918
        max:
        -   501.0182189941406
        scale:
        -   2.127430560542088
        zero_point:
        -   -109
        ori_min:
        -   -41.4765739440918
        ori_max:
        -   501.0182189941406
    '123':
        qtype: asymmetric_quantized
        qmethod: layer
        dtype: int8
        min:
        -   -411.8770446777344
        max:
        -   518.1282348632812
        scale:
        -   3.647079527611826
        zero_point:
        -   -15
        ori_min:
        -   -411.8770446777344
        ori_max:
        -   518.1282348632812
    '124':
        qtype: asymmetric_quantized
        qmethod: layer
        dtype: int8
        min:
        -   -82.37541198730469
        max:
        -   518.1282348632812
        scale:
        -   2.3549162621591604
        zero_point:
        -   -93
        ori_min:
        -   -82.37541198730469
        ori_max:
        -   518.1282348632812
    '125':
        qtype: asymmetric_quantized
        qmethod: layer
        dtype: int8
        min:
        -   -82.37541198730469
        max:
        -   518.1282348632812
        scale:
        -   2.3549162621591604
        zero_point:
        -   -93
        ori_min:
        -   -82.37541198730469
        ori_max:
        -   518.1282348632812
    '126':
        qtype: asymmetric_quantized
        qmethod: layer
        dtype: int8
        min:
        -   -1130.3992919921875
        max:
        -   1681.067138671875
        scale:
        -   11.025358551623775
        zero_point:
        -   -25
        ori_min:
        -   -1130.3992919921875
        ori_max:
        -   1681.067138671875
    '127':
        qtype: asymmetric_quantized
        qmethod: layer
        dtype: int8
        min:
        -   -226.07986450195312
        max:
        -   1681.067138671875
        scale:
        -   7.47900785558364
        zero_point:
        -   -98
        ori_min:
        -   -226.07986450195312
        ori_max:
        -   1681.067138671875
    '128':
        qtype: asymmetric_quantized
        qmethod: layer
        dtype: int8
        min:
        -   -226.07986450195312
        max:
        -   1681.067138671875
        scale:
        -   7.47900785558364
        zero_point:
        -   -98
        ori_min:
        -   -226.07986450195312
        ori_max:
        -   1681.067138671875
    '129':
        qtype: asymmetric_quantized
        qmethod: layer
        dtype: int8
        min:
        -   -880.5444946289062
        max:
        -   1209.498291015625
        scale:
        -   8.196246218213847
        zero_point:
        -   -21
        ori_min:
        -   -880.5444946289062
        ori_max:
        -   1209.498291015625
    '130':
        qtype: asymmetric_quantized
        qmethod: layer
        dtype: int8
        min:
        -   -1301.2637939453125
        max:
        -   1469.587890625
        scale:
        -   10.866085037530636
        zero_point:
        -   -8
        ori_min:
        -   -1301.2637939453125
        ori_max:
        -   1469.587890625
    '132':
        qtype: asymmetric_quantized
        qmethod: layer
        dtype: int8
        min:
        -   0.0
        max:
        -   1469.587890625
        scale:
        -   5.763089767156862
        zero_point:
        -   -128
        ori_min:
        -   8.344650268554688e-07
        ori_max:
        -   1469.587890625
    '131':
        qtype: asymmetric_quantized
        qmethod: layer
        dtype: int8
        min:
        -   -1085.857421875
        max:
        -   1093.1539306640625
        scale:
        -   8.545142558976716
        zero_point:
        -   -1
        ori_min:
        -   -1085.857421875
        ori_max:
        -   1093.1539306640625
    '133':
        qtype: asymmetric_quantized
        qmethod: layer
        dtype: int8
        min:
        -   0.0
        max:
        -   1093.1539306640625
        scale:
        -   4.286878159466911
        zero_point:
        -   -128
        ori_min:
        -   1.0728836059570312e-06
        ori_max:
        -   1093.1539306640625
    '134':
        qtype: asymmetric_quantized
        qmethod: layer
        dtype: int8
        min:
        -   0.0
        max:
        -   1817.74267578125
        scale:
        -   7.128402650122549
        zero_point:
        -   -128
        ori_min:
        -   0.00028626370476558805
        ori_max:
        -   1817.74267578125
    '135':
        qtype: asymmetric_quantized
        qmethod: layer
        dtype: int8
        min:
        -   -974.6300659179688
        max:
        -   660.0282592773438
        scale:
        -   6.4104248046875
        zero_point:
        -   24
        ori_min:
        -   -974.6300659179688
        ori_max:
        -   660.0282592773438
    '136':
        qtype: asymmetric_quantized
        qmethod: layer
        dtype: int8
        min:
        -   -1407.143798828125
        max:
        -   1312.6240234375
        scale:
        -   10.665756165747549
        zero_point:
        -   4
        ori_min:
        -   -1407.143798828125
        ori_max:
        -   1312.6240234375
    '137':
        qtype: asymmetric_quantized
        qmethod: layer
        dtype: int8
        min:
        -   -140.71438598632812
        max:
        -   1312.6240234375
        scale:
        -   5.699366311465993
        zero_point:
        -   -103
        ori_min:
        -   -140.71438598632812
        ori_max:
        -   1312.6240234375
    '138':
        qtype: asymmetric_quantized
        qmethod: layer
        dtype: int8
        min:
        -   -140.71438598632812
        max:
        -   1312.6240234375
        scale:
        -   5.699366311465993
        zero_point:
        -   -103
        ori_min:
        -   -140.71438598632812
        ori_max:
        -   1312.6240234375
    '139':
        qtype: asymmetric_quantized
        qmethod: layer
        dtype: int8
        min:
        -   -2428.40478515625
        max:
        -   2843.31787109375
        scale:
        -   20.673422181372548
        zero_point:
        -   -11
        ori_min:
        -   -2428.40478515625
        ori_max:
        -   2843.31787109375
    '140':
        qtype: asymmetric_quantized
        qmethod: layer
        dtype: int8
        min:
        -   -485.68096923828125
        max:
        -   2843.31787109375
        scale:
        -   13.05489741306679
        zero_point:
        -   -91
        ori_min:
        -   -485.68096923828125
        ori_max:
        -   2843.31787109375
    '141':
        qtype: asymmetric_quantized
        qmethod: layer
        dtype: int8
        min:
        -   -2450.197265625
        max:
        -   1339.1207275390625
        scale:
        -   14.860070561427696
        zero_point:
        -   37
        ori_min:
        -   -2450.197265625
        ori_max:
        -   1339.1207275390625
    '142':
        qtype: asymmetric_quantized
        qmethod: layer
        dtype: int8
        min:
        -   -490.0394592285156
        max:
        -   1339.1207275390625
        scale:
        -   7.17317720301011
        zero_point:
        -   -60
        ori_min:
        -   -490.0394592285156
        ori_max:
        -   1339.1207275390625
    '143':
        qtype: asymmetric_quantized
        qmethod: layer
        dtype: int8
        min:
        -   -1697.4967041015625
        max:
        -   1577.045654296875
        scale:
        -   12.841342581954656
        zero_point:
        -   4
        ori_min:
        -   -1697.4967041015625
        ori_max:
        -   1577.045654296875
    '144':
        qtype: asymmetric_quantized
        qmethod: layer
        dtype: int8
        min:
        -   -339.4993591308594
        max:
        -   1577.045654296875
        scale:
        -   7.515862797755821
        zero_point:
        -   -83
        ori_min:
        -   -339.4993591308594
        ori_max:
        -   1577.045654296875
    '145':
        qtype: asymmetric_quantized
        qmethod: layer
        dtype: int8
        min:
        -   -3.2
        max:
        -   3.2
        scale:
        -   0.025098039215686277
        zero_point:
        -   0
        ori_min:
        -   -56.99757766723633
        ori_max:
        -   1297.828857421875
    '146':
        qtype: asymmetric_quantized
        qmethod: layer
        dtype: int8
        min:
        -   -1.0000001192092896
        max:
        -   1.0000001192092896
        scale:
        -   0.00784313818987678
        zero_point:
        -   0
        ori_min:
        -   -1.0000001192092896
        ori_max:
        -   1.0000001192092896
    output:
        qtype: asymmetric_quantized
        qmethod: layer
        dtype: float32
        min:
        -   -5.960464477539063e-08
        max:
        -   1.0
        scale: []
        zero_point: []
        ori_min:
        -   -5.960464477539063e-08
        ori_max:
        -   1.0
    input_vis_int8:
        qtype: asymmetric_quantized
        qmethod: layer
        dtype: int8
        min:
        -   0.0
        max:
        -   1.0
        scale:
        -   0.00392156862745098
        zero_point:
        -   -128
        ori_min:
        -   0.0
        ori_max:
        -   1.0
    input_inf_int8:
        qtype: asymmetric_quantized
        qmethod: layer
        dtype: int8
        min:
        -   0.0
        max:
        -   248.0
        scale:
        -   0.9725490196078431
        zero_point:
        -   -128
        ori_min:
        -   0.0
        ori_max:
        -   248.0
    output_int8:
        qtype: asymmetric_quantized
        qmethod: layer
        dtype: int8
        min:
        -   -5.960464477539063e-08
        max:
        -   1.0
        scale:
        -   0.003921568861194685
        zero_point:
        -   -128
        ori_min:
        -   -5.960464477539063e-08
        ori_max:
        -   1.0
