custom_quantize_layers:
    '75': float16
    '76': float16
    '78': float16
    '83': float16
    '84': float16
    '79': float16
    '81': float16
    '80': float16
    '82': float16
    '85': float16
    '87': float16
    '86': float16
    '88': float16
    '90': float16
    '91': float16
    '93': float16
    '98': float16
    '99': float16
    '92': float16
    '94': float16
    '96': float16
    '95': float16
    '97': float16
    '100': float16
    '102': float16
    '101': float16
    '103': float16
    '105': float16
    '138': float16
    '106': float16
    '107': float16
    '108': float16
    '110': float16
    '115': float16
    '116': float16
    '109': float16
    '111': float16
    '113': float16
    '112': float16
    '114': float16
    '121': float16
    '117': float16
    '119': float16
    '118': float16
    '120': float16
    '122': float16
    '123': float16
    '125': float16
    '130': float16
    '131': float16
    '124': float16
    '126': float16
    '128': float16
    '127': float16
    '129': float16
    '136': float16
    '132': float16
    '134': float16
    '133': float16
    '135': float16
    '137': float16
    '139': float16
    '140': float16
    '141': float16
    '142': float16
    '143': float16
    '144': float16
    '145': float16
quantize_parameters:
    input_vis:
        qtype: asymmetric_quantized
        qmethod: layer
        dtype: float32
        min:
        -   0.007843137718737125
        max:
        -   1.0
        scale: []
        zero_point: []
        ori_min:
        -   0.007843137718737125
        ori_max:
        -   1.0
    '74':
        qtype: asymmetric_quantized
        qmethod: layer
        dtype: int8
        min:
        -   -1.383987545967102
        max:
        -   1.4455488920211792
        scale:
        -   0.01109622132544424
        zero_point:
        -   -3
        ori_min:
        -   -1.383987545967102
        ori_max:
        -   1.4455488920211792
    '75':
        qtype: asymmetric_quantized
        qmethod: layer
        dtype: int8
        min:
        -   -0.27679750323295593
        max:
        -   1.4455488920211792
        scale:
        -   0.006754299589231902
        zero_point:
        -   -87
        ori_min:
        -   -0.27679750323295593
        ori_max:
        -   1.4455488920211792
    '76':
        qtype: asymmetric_quantized
        qmethod: layer
        dtype: int8
        min:
        -   -1.8643985986709595
        max:
        -   2.319800615310669
        scale:
        -   0.016408624368555405
        zero_point:
        -   -14
        ori_min:
        -   -1.8643985986709595
        ori_max:
        -   2.319800615310669
    '77':
        qtype: asymmetric_quantized
        qmethod: layer
        dtype: int8
        min:
        -   -0.3728797137737274
        max:
        -   2.319800615310669
        scale:
        -   0.01055953070229175
        zero_point:
        -   -93
        ori_min:
        -   -0.3728797137737274
        ori_max:
        -   2.319800615310669
    '78':
        qtype: asymmetric_quantized
        qmethod: layer
        dtype: int8
        min:
        -   -0.3728797137737274
        max:
        -   2.319800615310669
        scale:
        -   0.01055953070229175
        zero_point:
        -   -93
        ori_min:
        -   -0.3728797137737274
        ori_max:
        -   2.319800615310669
    '79':
        qtype: asymmetric_quantized
        qmethod: layer
        dtype: int8
        min:
        -   -4.281559467315674
        max:
        -   6.0860595703125
        scale:
        -   0.040657329559326175
        zero_point:
        -   -23
        ori_min:
        -   -4.281559467315674
        ori_max:
        -   6.0860595703125
    '80':
        qtype: asymmetric_quantized
        qmethod: layer
        dtype: int8
        min:
        -   -0.8563119173049927
        max:
        -   6.0860595703125
        scale:
        -   0.027224986225950952
        zero_point:
        -   -97
        ori_min:
        -   -0.8563119173049927
        ori_max:
        -   6.0860595703125
    '81':
        qtype: asymmetric_quantized
        qmethod: layer
        dtype: int8
        min:
        -   -0.8563119173049927
        max:
        -   6.0860595703125
        scale:
        -   0.027224986225950952
        zero_point:
        -   -97
        ori_min:
        -   -0.8563119173049927
        ori_max:
        -   6.0860595703125
    '82':
        qtype: asymmetric_quantized
        qmethod: layer
        dtype: int8
        min:
        -   -2.5218677520751953
        max:
        -   3.141664743423462
        scale:
        -   0.022209931354896694
        zero_point:
        -   -14
        ori_min:
        -   -2.5218677520751953
        ori_max:
        -   3.141664743423462
    '83':
        qtype: asymmetric_quantized
        qmethod: layer
        dtype: int8
        min:
        -   -4.402173042297363
        max:
        -   5.695237159729004
        scale:
        -   0.03959768706677007
        zero_point:
        -   -17
        ori_min:
        -   -4.402173042297363
        ori_max:
        -   5.695237159729004
    '85':
        qtype: asymmetric_quantized
        qmethod: layer
        dtype: int8
        min:
        -   0.0
        max:
        -   5.695237159729004
        scale:
        -   0.02233426337148629
        zero_point:
        -   -128
        ori_min:
        -   2.9802322387695312e-08
        ori_max:
        -   5.695237159729004
    '84':
        qtype: asymmetric_quantized
        qmethod: layer
        dtype: int8
        min:
        -   -5.723982334136963
        max:
        -   4.686516761779785
        scale:
        -   0.040825486650653914
        zero_point:
        -   12
        ori_min:
        -   -5.723982334136963
        ori_max:
        -   4.686516761779785
    '86':
        qtype: asymmetric_quantized
        qmethod: layer
        dtype: int8
        min:
        -   0.0
        max:
        -   5.723982334136963
        scale:
        -   0.02244698954563515
        zero_point:
        -   -128
        ori_min:
        -   4.0978193283081055e-08
        ori_max:
        -   5.723982334136963
    '87':
        qtype: asymmetric_quantized
        qmethod: layer
        dtype: int8
        min:
        -   0.0
        max:
        -   7.0692009925842285
        scale:
        -   0.02772235683366364
        zero_point:
        -   -128
        ori_min:
        -   5.3301453590393066e-05
        ori_max:
        -   7.0692009925842285
    '88':
        qtype: asymmetric_quantized
        qmethod: layer
        dtype: int8
        min:
        -   -2.0858638286590576
        max:
        -   2.410560369491577
        scale:
        -   0.01763303607117896
        zero_point:
        -   -10
        ori_min:
        -   -2.0858638286590576
        ori_max:
        -   2.410560369491577
    '89':
        qtype: asymmetric_quantized
        qmethod: layer
        dtype: int8
        min:
        -   -3.690520763397217
        max:
        -   3.3588688373565674
        scale:
        -   0.027644665100995232
        zero_point:
        -   5
        ori_min:
        -   -3.690520763397217
        ori_max:
        -   3.3588688373565674
    '90':
        qtype: asymmetric_quantized
        qmethod: layer
        dtype: int8
        min:
        -   -0.36905208230018616
        max:
        -   3.3588688373565674
        scale:
        -   0.014619297724144132
        zero_point:
        -   -103
        ori_min:
        -   -0.36905208230018616
        ori_max:
        -   3.3588688373565674
    '91':
        qtype: asymmetric_quantized
        qmethod: layer
        dtype: int8
        min:
        -   -4.466966152191162
        max:
        -   5.174273490905762
        scale:
        -   0.03780878291410558
        zero_point:
        -   -10
        ori_min:
        -   -4.466966152191162
        ori_max:
        -   5.174273490905762
    '92':
        qtype: asymmetric_quantized
        qmethod: layer
        dtype: int8
        min:
        -   -0.8933932185173035
        max:
        -   5.174273490905762
        scale:
        -   0.023794771409502216
        zero_point:
        -   -90
        ori_min:
        -   -0.8933932185173035
        ori_max:
        -   5.174273490905762
    '93':
        qtype: asymmetric_quantized
        qmethod: layer
        dtype: int8
        min:
        -   -0.8933932185173035
        max:
        -   5.174273490905762
        scale:
        -   0.023794771409502216
        zero_point:
        -   -90
        ori_min:
        -   -0.8933932185173035
        ori_max:
        -   5.174273490905762
    '94':
        qtype: asymmetric_quantized
        qmethod: layer
        dtype: int8
        min:
        -   -8.763450622558594
        max:
        -   9.46480941772461
        scale:
        -   0.07148337270699295
        zero_point:
        -   -5
        ori_min:
        -   -8.763450622558594
        ori_max:
        -   9.46480941772461
    '95':
        qtype: asymmetric_quantized
        qmethod: layer
        dtype: int8
        min:
        -   -1.7526901960372925
        max:
        -   9.46480941772461
        scale:
        -   0.043990194563772164
        zero_point:
        -   -88
        ori_min:
        -   -1.7526901960372925
        ori_max:
        -   9.46480941772461
    '96':
        qtype: asymmetric_quantized
        qmethod: layer
        dtype: int8
        min:
        -   -1.7526901960372925
        max:
        -   9.46480941772461
        scale:
        -   0.043990194563772164
        zero_point:
        -   -88
        ori_min:
        -   -1.7526901960372925
        ori_max:
        -   9.46480941772461
    '97':
        qtype: asymmetric_quantized
        qmethod: layer
        dtype: int8
        min:
        -   -5.206281661987305
        max:
        -   5.796794414520264
        scale:
        -   0.043149317947088504
        zero_point:
        -   -7
        ori_min:
        -   -5.206281661987305
        ori_max:
        -   5.796794414520264
    '98':
        qtype: asymmetric_quantized
        qmethod: layer
        dtype: int8
        min:
        -   -9.573974609375
        max:
        -   12.961614608764648
        scale:
        -   0.08837485967897901
        zero_point:
        -   -20
        ori_min:
        -   -9.573974609375
        ori_max:
        -   12.961614608764648
    '100':
        qtype: asymmetric_quantized
        qmethod: layer
        dtype: int8
        min:
        -   0.0
        max:
        -   12.961614608764648
        scale:
        -   0.05082986121084176
        zero_point:
        -   -128
        ori_min:
        -   0.0
        ori_max:
        -   12.961614608764648
    '99':
        qtype: asymmetric_quantized
        qmethod: layer
        dtype: int8
        min:
        -   -13.603477478027344
        max:
        -   9.008781433105469
        scale:
        -   0.0886755251416973
        zero_point:
        -   25
        ori_min:
        -   -13.603477478027344
        ori_max:
        -   9.008781433105469
    '101':
        qtype: asymmetric_quantized
        qmethod: layer
        dtype: int8
        min:
        -   0.0
        max:
        -   13.603477478027344
        scale:
        -   0.05334697050206801
        zero_point:
        -   -128
        ori_min:
        -   5.960464477539063e-08
        ori_max:
        -   13.603477478027344
    '102':
        qtype: asymmetric_quantized
        qmethod: layer
        dtype: int8
        min:
        -   0.0
        max:
        -   16.60573959350586
        scale:
        -   0.06512054742551317
        zero_point:
        -   -128
        ori_min:
        -   2.5916844606399536e-05
        ori_max:
        -   16.60573959350586
    '103':
        qtype: asymmetric_quantized
        qmethod: layer
        dtype: int8
        min:
        -   -7.459359169006348
        max:
        -   5.5664167404174805
        scale:
        -   0.05108147415460325
        zero_point:
        -   18
        ori_min:
        -   -7.459359169006348
        ori_max:
        -   5.5664167404174805
    '104':
        qtype: asymmetric_quantized
        qmethod: layer
        dtype: int8
        min:
        -   -9.503448486328125
        max:
        -   8.457673072814941
        scale:
        -   0.07043577082016889
        zero_point:
        -   7
        ori_min:
        -   -9.503448486328125
        ori_max:
        -   8.457673072814941
    '105':
        qtype: asymmetric_quantized
        qmethod: layer
        dtype: int8
        min:
        -   -0.9503448605537415
        max:
        -   8.457673072814941
        scale:
        -   0.03689418797399484
        zero_point:
        -   -102
        ori_min:
        -   -0.9503448605537415
        ori_max:
        -   8.457673072814941
    input_inf:
        qtype: asymmetric_quantized
        qmethod: layer
        dtype: float32
        min:
        -   0.0
        max:
        -   255.0
        scale: []
        zero_point: []
        ori_min:
        -   0.0
        ori_max:
        -   255.0
    '106':
        qtype: asymmetric_quantized
        qmethod: layer
        dtype: int8
        min:
        -   -312.7891845703125
        max:
        -   244.63624572753906
        scale:
        -   2.185982079599418
        zero_point:
        -   15
        ori_min:
        -   -312.7891845703125
        ori_max:
        -   244.63624572753906
    '107':
        qtype: asymmetric_quantized
        qmethod: layer
        dtype: int8
        min:
        -   -62.557838439941406
        max:
        -   244.63624572753906
        scale:
        -   1.2046826830097273
        zero_point:
        -   -76
        ori_min:
        -   -62.557838439941406
        ori_max:
        -   244.63624572753906
    '108':
        qtype: asymmetric_quantized
        qmethod: layer
        dtype: int8
        min:
        -   -254.35870361328125
        max:
        -   297.41729736328125
        scale:
        -   2.163827454810049
        zero_point:
        -   -10
        ori_min:
        -   -254.35870361328125
        ori_max:
        -   297.41729736328125
    '109':
        qtype: asymmetric_quantized
        qmethod: layer
        dtype: int8
        min:
        -   -50.871742248535156
        max:
        -   297.41729736328125
        scale:
        -   1.365839371026731
        zero_point:
        -   -91
        ori_min:
        -   -50.871742248535156
        ori_max:
        -   297.41729736328125
    '110':
        qtype: asymmetric_quantized
        qmethod: layer
        dtype: int8
        min:
        -   -62.557838439941406
        max:
        -   297.41729736328125
        scale:
        -   1.411667199228324
        zero_point:
        -   -84
        ori_min:
        -   -62.557838439941406
        ori_max:
        -   297.41729736328125
    '111':
        qtype: asymmetric_quantized
        qmethod: layer
        dtype: int8
        min:
        -   -387.7334899902344
        max:
        -   423.9245300292969
        scale:
        -   3.1829726275275734
        zero_point:
        -   -6
        ori_min:
        -   -387.7334899902344
        ori_max:
        -   423.9245300292969
    '112':
        qtype: asymmetric_quantized
        qmethod: layer
        dtype: int8
        min:
        -   -77.54669952392578
        max:
        -   423.9245300292969
        scale:
        -   1.9665538413851869
        zero_point:
        -   -89
        ori_min:
        -   -77.54669952392578
        ori_max:
        -   423.9245300292969
    '113':
        qtype: asymmetric_quantized
        qmethod: layer
        dtype: int8
        min:
        -   -77.54669952392578
        max:
        -   423.9245300292969
        scale:
        -   1.9665538413851869
        zero_point:
        -   -89
        ori_min:
        -   -77.54669952392578
        ori_max:
        -   423.9245300292969
    '114':
        qtype: asymmetric_quantized
        qmethod: layer
        dtype: int8
        min:
        -   -300.7565612792969
        max:
        -   425.06378173828125
        scale:
        -   2.8463542863434435
        zero_point:
        -   -22
        ori_min:
        -   -300.7565612792969
        ori_max:
        -   425.06378173828125
    '115':
        qtype: asymmetric_quantized
        qmethod: layer
        dtype: int8
        min:
        -   -880.8587646484375
        max:
        -   882.42041015625
        scale:
        -   6.914820293351716
        zero_point:
        -   -1
        ori_min:
        -   -880.8587646484375
        ori_max:
        -   882.42041015625
    '117':
        qtype: asymmetric_quantized
        qmethod: layer
        dtype: int8
        min:
        -   0.0
        max:
        -   882.42041015625
        scale:
        -   3.4604721966911764
        zero_point:
        -   -128
        ori_min:
        -   3.121793270111084e-06
        ori_max:
        -   882.42041015625
    '116':
        qtype: asymmetric_quantized
        qmethod: layer
        dtype: int8
        min:
        -   -845.6709594726562
        max:
        -   760.9002685546875
        scale:
        -   6.300279325597426
        zero_point:
        -   6
        ori_min:
        -   -845.6709594726562
        ori_max:
        -   760.9002685546875
    '118':
        qtype: asymmetric_quantized
        qmethod: layer
        dtype: int8
        min:
        -   0.0
        max:
        -   845.6709594726562
        scale:
        -   3.3163567038143382
        zero_point:
        -   -128
        ori_min:
        -   2.6434659957885742e-05
        ori_max:
        -   845.6709594726562
    '119':
        qtype: asymmetric_quantized
        qmethod: layer
        dtype: int8
        min:
        -   0.0
        max:
        -   1282.4630126953125
        scale:
        -   5.029266716452206
        zero_point:
        -   -128
        ori_min:
        -   0.0020343661308288574
        ori_max:
        -   1282.4630126953125
    '120':
        qtype: asymmetric_quantized
        qmethod: layer
        dtype: int8
        min:
        -   -432.23321533203125
        max:
        -   571.349609375
        scale:
        -   3.9356189204197305
        zero_point:
        -   -18
        ori_min:
        -   -432.23321533203125
        ori_max:
        -   571.349609375
    '121':
        qtype: asymmetric_quantized
        qmethod: layer
        dtype: int8
        min:
        -   -546.7575073242188
        max:
        -   562.5931396484375
        scale:
        -   4.350394694010417
        zero_point:
        -   -2
        ori_min:
        -   -546.7575073242188
        ori_max:
        -   562.5931396484375
    '122':
        qtype: asymmetric_quantized
        qmethod: layer
        dtype: int8
        min:
        -   -54.675750732421875
        max:
        -   562.5931396484375
        scale:
        -   2.4206623152190563
        zero_point:
        -   -105
        ori_min:
        -   -54.675750732421875
        ori_max:
        -   562.5931396484375
    '123':
        qtype: asymmetric_quantized
        qmethod: layer
        dtype: int8
        min:
        -   -484.5782775878906
        max:
        -   563.4463500976562
        scale:
        -   4.109900500727635
        zero_point:
        -   -10
        ori_min:
        -   -484.5782775878906
        ori_max:
        -   563.4463500976562
    '124':
        qtype: asymmetric_quantized
        qmethod: layer
        dtype: int8
        min:
        -   -96.91565704345703
        max:
        -   563.4463500976562
        scale:
        -   2.58965492996515
        zero_point:
        -   -91
        ori_min:
        -   -96.91565704345703
        ori_max:
        -   563.4463500976562
    '125':
        qtype: asymmetric_quantized
        qmethod: layer
        dtype: int8
        min:
        -   -96.91565704345703
        max:
        -   563.4463500976562
        scale:
        -   2.58965492996515
        zero_point:
        -   -91
        ori_min:
        -   -96.91565704345703
        ori_max:
        -   563.4463500976562
    '126':
        qtype: asymmetric_quantized
        qmethod: layer
        dtype: int8
        min:
        -   -1218.7767333984375
        max:
        -   1831.693359375
        scale:
        -   11.962627814797795
        zero_point:
        -   -26
        ori_min:
        -   -1218.7767333984375
        ori_max:
        -   1831.693359375
    '127':
        qtype: asymmetric_quantized
        qmethod: layer
        dtype: int8
        min:
        -   -243.75535583496094
        max:
        -   1831.693359375
        scale:
        -   8.139014569450827
        zero_point:
        -   -98
        ori_min:
        -   -243.75535583496094
        ori_max:
        -   1831.693359375
    '128':
        qtype: asymmetric_quantized
        qmethod: layer
        dtype: int8
        min:
        -   -243.75535583496094
        max:
        -   1831.693359375
        scale:
        -   8.139014569450827
        zero_point:
        -   -98
        ori_min:
        -   -243.75535583496094
        ori_max:
        -   1831.693359375
    '129':
        qtype: asymmetric_quantized
        qmethod: layer
        dtype: int8
        min:
        -   -966.8473510742188
        max:
        -   1321.3275146484375
        scale:
        -   8.973234767539829
        zero_point:
        -   -20
        ori_min:
        -   -966.8473510742188
        ori_max:
        -   1321.3275146484375
    '130':
        qtype: asymmetric_quantized
        qmethod: layer
        dtype: int8
        min:
        -   -1900.756591796875
        max:
        -   1970.601806640625
        scale:
        -   15.181797640931373
        zero_point:
        -   -3
        ori_min:
        -   -1900.756591796875
        ori_max:
        -   1970.601806640625
    '132':
        qtype: asymmetric_quantized
        qmethod: layer
        dtype: int8
        min:
        -   0.0
        max:
        -   1970.601806640625
        scale:
        -   7.727850222120098
        zero_point:
        -   -128
        ori_min:
        -   1.1920928955078125e-07
        ori_max:
        -   1970.601806640625
    '131':
        qtype: asymmetric_quantized
        qmethod: layer
        dtype: int8
        min:
        -   -1768.858642578125
        max:
        -   1845.3065185546875
        scale:
        -   14.173196710324754
        zero_point:
        -   -3
        ori_min:
        -   -1768.858642578125
        ori_max:
        -   1845.3065185546875
    '133':
        qtype: asymmetric_quantized
        qmethod: layer
        dtype: int8
        min:
        -   0.0
        max:
        -   1845.3065185546875
        scale:
        -   7.236496151194853
        zero_point:
        -   -128
        ori_min:
        -   4.366040229797363e-06
        ori_max:
        -   1845.3065185546875
    '134':
        qtype: asymmetric_quantized
        qmethod: layer
        dtype: int8
        min:
        -   0.0
        max:
        -   2990.331298828125
        scale:
        -   11.726789407169118
        zero_point:
        -   -128
        ori_min:
        -   0.0008063316345214844
        ori_max:
        -   2990.331298828125
    '135':
        qtype: asymmetric_quantized
        qmethod: layer
        dtype: int8
        min:
        -   -1813.174072265625
        max:
        -   981.3351440429688
        scale:
        -   10.958859671798407
        zero_point:
        -   37
        ori_min:
        -   -1813.174072265625
        ori_max:
        -   981.3351440429688
    '136':
        qtype: asymmetric_quantized
        qmethod: layer
        dtype: int8
        min:
        -   -2061.38671875
        max:
        -   1519.650634765625
        scale:
        -   14.04328373927696
        zero_point:
        -   19
        ori_min:
        -   -2061.38671875
        ori_max:
        -   1519.650634765625
    '137':
        qtype: asymmetric_quantized
        qmethod: layer
        dtype: int8
        min:
        -   -206.138671875
        max:
        -   1519.650634765625
        scale:
        -   6.7678012025122545
        zero_point:
        -   -98
        ori_min:
        -   -206.138671875
        ori_max:
        -   1519.650634765625
    '138':
        qtype: asymmetric_quantized
        qmethod: layer
        dtype: int8
        min:
        -   -206.138671875
        max:
        -   1519.650634765625
        scale:
        -   6.7678012025122545
        zero_point:
        -   -98
        ori_min:
        -   -206.138671875
        ori_max:
        -   1519.650634765625
    '139':
        qtype: asymmetric_quantized
        qmethod: layer
        dtype: int8
        min:
        -   -2588.119873046875
        max:
        -   3145.470458984375
        scale:
        -   22.48466796875
        zero_point:
        -   -13
        ori_min:
        -   -2588.119873046875
        ori_max:
        -   3145.470458984375
    '140':
        qtype: asymmetric_quantized
        qmethod: layer
        dtype: int8
        min:
        -   -517.6239624023438
        max:
        -   3145.470458984375
        scale:
        -   14.365076162300857
        zero_point:
        -   -92
        ori_min:
        -   -517.6239624023438
        ori_max:
        -   3145.470458984375
    '141':
        qtype: asymmetric_quantized
        qmethod: layer
        dtype: int8
        min:
        -   -2676.101806640625
        max:
        -   1472.1248779296875
        scale:
        -   16.267555625765933
        zero_point:
        -   37
        ori_min:
        -   -2676.101806640625
        ori_max:
        -   1472.1248779296875
    '142':
        qtype: asymmetric_quantized
        qmethod: layer
        dtype: int8
        min:
        -   -535.2203979492188
        max:
        -   1472.1248779296875
        scale:
        -   7.871942258348652
        zero_point:
        -   -60
        ori_min:
        -   -535.2203979492188
        ori_max:
        -   1472.1248779296875
    '143':
        qtype: asymmetric_quantized
        qmethod: layer
        dtype: int8
        min:
        -   -1824.839111328125
        max:
        -   1877.4329833984375
        scale:
        -   14.518714096966912
        zero_point:
        -   -2
        ori_min:
        -   -1824.839111328125
        ori_max:
        -   1877.4329833984375
    '144':
        qtype: asymmetric_quantized
        qmethod: layer
        dtype: int8
        min:
        -   -364.96783447265625
        max:
        -   1877.4329833984375
        scale:
        -   8.793728697533702
        zero_point:
        -   -86
        ori_min:
        -   -364.96783447265625
        ori_max:
        -   1877.4329833984375
    '145':
        qtype: asymmetric_quantized
        qmethod: layer
        dtype: int8
        min:
        -   -3.2
        max:
        -   3.2
        scale:
        -   0.025098039215686277
        zero_point:
        -   0
        ori_min:
        -   -166.05723571777344
        ori_max:
        -   1473.00634765625
    '146':
        qtype: asymmetric_quantized
        qmethod: layer
        dtype: int8
        min:
        -   -1.0000001192092896
        max:
        -   1.0000001192092896
        scale:
        -   0.00784313818987678
        zero_point:
        -   0
        ori_min:
        -   -1.0000001192092896
        ori_max:
        -   1.0000001192092896
    output:
        qtype: asymmetric_quantized
        qmethod: layer
        dtype: float32
        min:
        -   -5.960464477539063e-08
        max:
        -   1.0
        scale: []
        zero_point: []
        ori_min:
        -   -5.960464477539063e-08
        ori_max:
        -   1.0
    input_vis_int8:
        qtype: asymmetric_quantized
        qmethod: layer
        dtype: int8
        min:
        -   0.0
        max:
        -   1.0
        scale:
        -   0.00392156862745098
        zero_point:
        -   -128
        ori_min:
        -   0.007843137718737125
        ori_max:
        -   1.0
    input_inf_int8:
        qtype: asymmetric_quantized
        qmethod: layer
        dtype: int8
        min:
        -   0.0
        max:
        -   255.0
        scale:
        -   1.0
        zero_point:
        -   -128
        ori_min:
        -   0.0
        ori_max:
        -   255.0
    output_int8:
        qtype: asymmetric_quantized
        qmethod: layer
        dtype: int8
        min:
        -   -5.960464477539063e-08
        max:
        -   1.0
        scale:
        -   0.003921568861194685
        zero_point:
        -   -128
        ori_min:
        -   -5.960464477539063e-08
        ori_max:
        -   1.0
